/**
******************************************************************************
* @file    sine_model_data.c
* @author  AST Embedded Analytics Research Platform
* @date    Fri May  3 21:34:55 2024
* @brief   AI Tool Automatic Code Generator for Embedded NN computing
******************************************************************************
* @attention
*
* Copyright (c) 2024 STMicroelectronics.
* All rights reserved.
*
* This software component is licensed by ST under Ultimate Liberty license
* SLA0044, the "License"; You may not use this file except in compliance with
* the License. You may obtain a copy of the License at:
*                             www.st.com/SLA0044
*
******************************************************************************
*/

#include "sine_model_data.h"

ai_handle ai_sine_model_data_weights_get(void)
{
  AI_ALIGNED(32)
  static const ai_u8 s_sine_model_weights[1380] = {
    0xb4, 0xe2, 0x7f, 0xff, 0x75, 0x14, 0xf8, 0x51, 0x1f, 0x58,
    0xad, 0xbc, 0xd9, 0x63, 0xf6, 0xcb, 0x00, 0x00, 0x00, 0x00,
    0x00, 0x00, 0x00, 0x00, 0x5f, 0xfe, 0xff, 0xff, 0xca, 0xff,
    0xff, 0xff, 0x17, 0xf8, 0xff, 0xff, 0x4e, 0xfa, 0xff, 0xff,
    0x00, 0x00, 0x00, 0x00, 0x4a, 0xf9, 0xff, 0xff, 0x38, 0xf7,
    0xff, 0xff, 0xac, 0x09, 0x00, 0x00, 0x00, 0x00, 0x00, 0x00,
    0x00, 0x00, 0x00, 0x00, 0x00, 0x00, 0x00, 0x00, 0x1c, 0x06,
    0x00, 0x00, 0x00, 0x00, 0x00, 0x00, 0x00, 0x00, 0x00, 0x00,
    0x1e, 0xf8, 0x5b, 0xc6, 0x5b, 0x53, 0x14, 0x73, 0x43, 0xb8,
    0xe1, 0xe0, 0x27, 0xe1, 0xc5, 0xae, 0x25, 0x0f, 0xd9, 0xad,
    0x56, 0xb2, 0xca, 0x17, 0x55, 0x43, 0x0c, 0x65, 0xc9, 0x43,
    0x27, 0x11, 0xb1, 0x38, 0xb6, 0xc2, 0x0a, 0x11, 0x2b, 0x06,
    0x5e, 0xe2, 0x59, 0x46, 0xe7, 0xd1, 0x2d, 0x00, 0xce, 0xde,
    0x39, 0x9d, 0xd8, 0x0b, 0xf5, 0x3c, 0x96, 0x1b, 0xbb, 0x19,
    0xde, 0x4c, 0x4b, 0x12, 0xf7, 0x08, 0xc3, 0x64, 0x28, 0xeb,
    0xbd, 0x01, 0x18, 0x05, 0xd2, 0xbe, 0x54, 0xbe, 0x11, 0xff,
    0x28, 0xbc, 0x81, 0x53, 0xfb, 0xe5, 0x1d, 0xbe, 0x3e, 0x46,
    0x4d, 0x5e, 0x4c, 0x10, 0x14, 0x4e, 0x5c, 0xc0, 0x1a, 0x59,
    0xcf, 0xae, 0x49, 0x95, 0xf8, 0x12, 0x4c, 0x5c, 0xfe, 0x4b,
    0xd3, 0xf3, 0xbc, 0xc0, 0x37, 0xf8, 0x3e, 0x12, 0xef, 0x82,
    0xdf, 0xd4, 0xc1, 0x64, 0x5a, 0x34, 0xf6, 0xd3, 0xb8, 0xc8,
    0xc0, 0xe2, 0xaf, 0xab, 0xe8, 0x2e, 0xc5, 0x20, 0x09, 0xba,
    0x41, 0xf0, 0xd8, 0xce, 0x60, 0x66, 0x1c, 0x26, 0xeb, 0x3e,
    0x2f, 0x4f, 0x56, 0x4b, 0xa5, 0xdf, 0x00, 0x3c, 0xe3, 0xd6,
    0x9e, 0x5d, 0xad, 0x5d, 0x18, 0x2b, 0x16, 0x4e, 0x00, 0x13,
    0x2f, 0x22, 0x09, 0xce, 0xc1, 0x5f, 0xe6, 0x21, 0xaf, 0xc1,
    0xba, 0x26, 0x1f, 0x34, 0xe4, 0xc0, 0xb0, 0x02, 0xcc, 0xfa,
    0xe4, 0x14, 0x61, 0x4e, 0xec, 0x66, 0xcf, 0xbd, 0x27, 0xdc,
    0x16, 0xf5, 0x0d, 0x3d, 0x49, 0xfe, 0x9f, 0x48, 0xdc, 0x56,
    0x1a, 0xda, 0xb3, 0x61, 0x25, 0x65, 0xdc, 0x9c, 0xb5, 0x30,
    0xdf, 0xee, 0xeb, 0x3d, 0x1f, 0x58, 0x2c, 0xa3, 0x03, 0x16,
    0xca, 0x4c, 0xd0, 0x05, 0xff, 0xa7, 0x52, 0x8b, 0x0d, 0x1c,
    0xf8, 0x17, 0x4a, 0xcb, 0x30, 0xd9, 0x33, 0x53, 0x6c, 0x97,
    0xef, 0xe1, 0x0d, 0xe6, 0x01, 0x37, 0xc0, 0xf5, 0xff, 0xff,
    0x2d, 0xf9, 0xff, 0xff, 0x00, 0x00, 0x00, 0x00, 0xa2, 0x0d,
    0x00, 0x00, 0x00, 0x00, 0x00, 0x00, 0x15, 0x09, 0x00, 0x00,
    0xbc, 0x0c, 0x00, 0x00, 0x0b, 0x01, 0x00, 0x00, 0x2a, 0xfe,
    0xff, 0xff, 0x1c, 0xf7, 0xff, 0xff, 0x96, 0xff, 0xff, 0xff,
    0x00, 0x00, 0x00, 0x00, 0x00, 0x00, 0x00, 0x00, 0x00, 0x00,
    0x00, 0x00, 0xa2, 0x07, 0x00, 0x00, 0xb0, 0xef, 0xff, 0xff,
    0x36, 0x0d, 0x3c, 0x12, 0xdc, 0x1d, 0x01, 0xe0, 0x35, 0x46,
    0x43, 0xdb, 0x0f, 0x48, 0x4b, 0xaf, 0xff, 0x2e, 0x0e, 0xb9,
    0x2e, 0x10, 0x37, 0xec, 0xef, 0xf5, 0xdd, 0x29, 0xdf, 0xd2,
    0xf1, 0x49, 0x81, 0xbc, 0x03, 0x0e, 0xd6, 0x64, 0x3d, 0x24,
    0xc8, 0xdc, 0x43, 0x04, 0x15, 0xdc, 0xf1, 0xf4, 0xf9, 0x0d,
    0xdc, 0x35, 0xef, 0xab, 0x16, 0x22, 0x23, 0xb3, 0xcc, 0x23,
    0x1b, 0xbb, 0x02, 0x0e, 0xdc, 0x07, 0x27, 0xb2, 0x15, 0xb6,
    0xb3, 0xc6, 0x3b, 0x28, 0x2b, 0xca, 0xc5, 0x0f, 0x02, 0x31,
    0xdd, 0xdb, 0xec, 0xf2, 0x4b, 0x14, 0xdf, 0xc1, 0xf5, 0x3b,
    0x23, 0x3e, 0x3b, 0x01, 0xce, 0xd0, 0xf8, 0x23, 0x0a, 0xae,
    0x0b, 0x0c, 0x35, 0x00, 0xd5, 0x13, 0x25, 0xed, 0xef, 0x4c,
    0xbe, 0x0e, 0xdf, 0xa7, 0x31, 0x0f, 0x28, 0x51, 0xcc, 0xd1,
    0x45, 0xe8, 0x1b, 0x06, 0xfd, 0x3c, 0x2f, 0xfe, 0x17, 0x16,
    0x1c, 0x1c, 0x20, 0xa3, 0x31, 0xe3, 0xfe, 0x39, 0x3f, 0x3e,
    0xc5, 0xe0, 0xc0, 0xb4, 0x44, 0xd8, 0xbc, 0x11, 0xb3, 0xd1,
    0xb8, 0xec, 0xcd, 0x4f, 0xcf, 0xc9, 0xfc, 0x14, 0xc9, 0x69,
    0xed, 0xfa, 0x47, 0x2b, 0xb3, 0xbc, 0x1c, 0x03, 0x18, 0x22,
    0x1c, 0x4b, 0x28, 0x22, 0xcf, 0xe5, 0x51, 0x1c, 0x4c, 0xf9,
    0xbc, 0xf5, 0x0c, 0x4b, 0x46, 0x38, 0x29, 0x4a, 0xf5, 0x09,
    0xfc, 0x53, 0xe8, 0xbc, 0x2e, 0xf3, 0xe8, 0xb6, 0x5a, 0x48,
    0x0d, 0x3c, 0x0c, 0xd6, 0xbb, 0x33, 0x23, 0x0c, 0xbc, 0x45,
    0xd4, 0xce, 0x47, 0x3b, 0x2a, 0xf5, 0xb6, 0xdc, 0x2c, 0xc7,
    0x4c, 0x40, 0xac, 0xcb, 0x2f, 0x0f, 0xc8, 0x47, 0xcb, 0x9e,
    0x4f, 0xc6, 0x49, 0xca, 0x49, 0xcc, 0x47, 0x15, 0x1d, 0xda,
    0x1e, 0x14, 0x0c, 0x47, 0xea, 0xfd, 0xf7, 0x34, 0x2e, 0x03,
    0x1b, 0x38, 0xe6, 0x33, 0x2e, 0x29, 0xe9, 0xff, 0xff, 0xff,
    0x86, 0xff, 0xff, 0xff, 0xe0, 0x01, 0x00, 0x00, 0x07, 0x13,
    0x00, 0x00, 0x00, 0x00, 0x00, 0x00, 0xa8, 0xff, 0xff, 0xff,
    0x3d, 0xfe, 0xff, 0xff, 0x2a, 0x07, 0x00, 0x00, 0x8c, 0x0e,
    0x00, 0x00, 0x74, 0xf0, 0xff, 0xff, 0xdc, 0x0a, 0x00, 0x00,
    0x80, 0xf5, 0xff, 0xff, 0xf9, 0x0c, 0x00, 0x00, 0xdc, 0xfc,
    0xff, 0xff, 0x11, 0x0f, 0x00, 0x00, 0xa0, 0xf3, 0xff, 0xff,
    0x23, 0x05, 0xc4, 0x00, 0x0c, 0xcf, 0x1d, 0xc1, 0xc7, 0x08,
    0xdb, 0xcd, 0xbe, 0xf5, 0x2b, 0x22, 0xbf, 0xc3, 0x11, 0x05,
    0x0c, 0x26, 0x1d, 0xe2, 0x23, 0x35, 0x48, 0xc5, 0x20, 0x0a,
    0xed, 0xe8, 0xd0, 0x01, 0x08, 0xc0, 0x01, 0x2c, 0x10, 0x30,
    0xf8, 0xc7, 0x25, 0xc0, 0x05, 0xef, 0x0d, 0xc8, 0xdd, 0x2c,
    0x1a, 0x05, 0x05, 0x17, 0x1b, 0xa4, 0x10, 0xdf, 0x54, 0xb7,
    0x47, 0x00, 0x37, 0x3c, 0xd0, 0x34, 0xd6, 0x22, 0xb8, 0x0d,
    0x2a, 0x35, 0xbb, 0x3c, 0xbd, 0xfc, 0x08, 0x15, 0xde, 0x1e,
    0x3a, 0x17, 0xbe, 0xa6, 0xf3, 0x0d, 0xcf, 0xf6, 0xe2, 0xd2,
    0x30, 0x1e, 0xb5, 0x11, 0xb3, 0x27, 0xb0, 0x3f, 0x5a, 0x18,
    0x10, 0x43, 0x2f, 0x5b, 0x1c, 0x14, 0xd7, 0x96, 0x54, 0xe5,
    0x30, 0xb6, 0xbe, 0xdd, 0xf1, 0xdf, 0xe6, 0x2f, 0x3a, 0x4a,
    0x03, 0xc7, 0xc6, 0xd6, 0xfb, 0xda, 0x43, 0x9d, 0x2e, 0x44,
    0xe1, 0x0c, 0xb7, 0x2b, 0x14, 0x1e, 0xc1, 0xe3, 0xcb, 0x0a,
    0xe6, 0xcb, 0x28, 0xfd, 0x43, 0xe5, 0xc4, 0xe5, 0xda, 0x19,
    0xd6, 0x00, 0x05, 0xf3, 0x49, 0x35, 0xfc, 0xfd, 0x36, 0xe4,
    0x3f, 0x43, 0xfa, 0x04, 0x32, 0xbf, 0x2b, 0x35, 0xb8, 0x2c,
    0xcd, 0x43, 0x01, 0x3c, 0x2f, 0xe2, 0xed, 0xea, 0xd9, 0x81,
    0x22, 0xc2, 0x3a, 0x43, 0xcf, 0x5c, 0xad, 0x14, 0xc1, 0xf9,
    0xde, 0x36, 0x13, 0xdd, 0xb4, 0x0c, 0xda, 0xc4, 0xcb, 0xc4,
    0x21, 0xa8, 0x44, 0xd5, 0x28, 0x15, 0x28, 0xf5, 0x18, 0x30,
    0x19, 0x3a, 0xb6, 0x16, 0x06, 0x27, 0xbd, 0x10, 0x08, 0xc6,
    0xd0, 0xe4, 0xef, 0xcf, 0x3a, 0xf2, 0x12, 0xd3, 0xba, 0x40,
    0x26, 0x0f, 0xdb, 0xcd, 0x47, 0xf1, 0xe2, 0x0e, 0xc1, 0xe3,
    0x35, 0x3c, 0x09, 0xfa, 0x1e, 0xc7, 0x1c, 0xb4, 0x48, 0xdf,
    0x40, 0x19, 0xba, 0xce, 0x06, 0x21, 0x00, 0x00, 0x00, 0x00,
    0x14, 0xfc, 0xff, 0xff, 0x01, 0xfd, 0xff, 0xff, 0xfb, 0x07,
    0x00, 0x00, 0x00, 0x00, 0x00, 0x00, 0xfa, 0xf1, 0xff, 0xff,
    0x2a, 0x08, 0x00, 0x00, 0x39, 0x05, 0x00, 0x00, 0xf2, 0xfe,
    0xff, 0xff, 0x7c, 0x08, 0x00, 0x00, 0x79, 0x06, 0x00, 0x00,
    0xd0, 0xec, 0xff, 0xff, 0x75, 0x07, 0x00, 0x00, 0x2e, 0xfe,
    0xff, 0xff, 0xad, 0xff, 0xff, 0xff, 0x88, 0xf9, 0xff, 0xff,
    0x19, 0x00, 0x27, 0x24, 0xdf, 0xbe, 0xea, 0xe6, 0xfa, 0x2e,
    0xd5, 0x1e, 0x0e, 0x2a, 0xe7, 0xe0, 0xfc, 0xf5, 0xff, 0xf4,
    0xcc, 0xf7, 0x35, 0x39, 0x2c, 0xd6, 0x3b, 0xdf, 0xe7, 0xf2,
    0x1a, 0xd5, 0x15, 0xfd, 0xd8, 0xe8, 0xef, 0x29, 0xe9, 0xf9,
    0xd8, 0x0a, 0x03, 0x69, 0x2a, 0xdf, 0xfb, 0x11, 0xdf, 0xd1,
    0xd3, 0x1b, 0x14, 0xc3, 0x22, 0xeb, 0xf9, 0x16, 0x3a, 0x81,
    0xb0, 0x33, 0xea, 0x0e, 0x20, 0x30, 0xf2, 0xea, 0x32, 0xd6,
    0x04, 0xed, 0x2f, 0x42, 0xc8, 0xd4, 0xbd, 0x1b, 0xd8, 0x2b,
    0x25, 0x2b, 0x33, 0xca, 0xfe, 0x16, 0x04, 0xd0, 0xd9, 0xf8,
    0x27, 0xc6, 0xe7, 0x31, 0xcc, 0x1f, 0xe6, 0x1a, 0xd5, 0x40,
    0xf3, 0x29, 0xf4, 0x3e, 0xc7, 0xd7, 0xd3, 0xeb, 0xf9, 0xe0,
    0xdc, 0x0f, 0x22, 0xff, 0xcf, 0x1a, 0xd8, 0xe3, 0xd8, 0x31,
    0x2f, 0x0c, 0xfa, 0xd0, 0xd2, 0xd3, 0x28, 0xed, 0x29, 0xe4,
    0xdc, 0x3f, 0xf0, 0xb2, 0xc7, 0xdb, 0x38, 0x08, 0x18, 0xd5,
    0x54, 0x04, 0x19, 0xbd, 0x01, 0xe8, 0xf4, 0x50, 0x01, 0x01,
    0xc5, 0xee, 0xcd, 0x18, 0xe1, 0x13, 0x53, 0xdd, 0xf4, 0xde,
    0xe0, 0x18, 0x1f, 0x2c, 0x2b, 0xeb, 0x08, 0x0e, 0x06, 0xca,
    0x35, 0x78, 0x30, 0x0c, 0xca, 0x24, 0x1d, 0x37, 0xd5, 0xdb,
    0x13, 0xc7, 0xfc, 0xea, 0x38, 0xc3, 0xfa, 0x01, 0x1a, 0x09,
    0x18, 0x37, 0xf3, 0x09, 0xfa, 0x20, 0x14, 0xe6, 0xb5, 0x09,
    0xc9, 0x16, 0x07, 0x21, 0x2c, 0xd9, 0xcc, 0x1c, 0x1a, 0x08,
    0x29, 0xaf, 0x21, 0xd2, 0xf2, 0x32, 0xd9, 0x0a, 0x2a, 0xdd,
    0xcf, 0x31, 0xf9, 0x0b, 0xee, 0xd2, 0x01, 0xdf, 0x39, 0x10,
    0x02, 0xc9, 0x19, 0xd0, 0x08, 0xf0, 0x09, 0xf3, 0x28, 0x28,
    0x1e, 0xfc, 0xe6, 0xd1, 0xe7, 0x4f, 0xc9, 0xc8, 0xe1, 0x12,
    0xe0, 0x7e, 0xe4, 0x36, 0xd9, 0xf1, 0x15, 0x06, 0x00, 0x00,
    0xf3, 0x07, 0x00, 0x00, 0xab, 0xfd, 0xff, 0xff, 0xfe, 0x04,
    0x00, 0x00, 0x42, 0x02, 0x00, 0x00, 0x2d, 0x04, 0x00, 0x00,
    0x0c, 0x08, 0x00, 0x00, 0xc9, 0xfd, 0xff, 0xff, 0x19, 0x05,
    0x00, 0x00, 0xba, 0x08, 0x00, 0x00, 0x00, 0xfb, 0xff, 0xff,
    0x61, 0xff, 0xff, 0xff, 0x69, 0xfc, 0xff, 0xff, 0xd9, 0x0b,
    0x00, 0x00, 0xf5, 0x02, 0x00, 0x00, 0x38, 0xf1, 0xff, 0xff,
    0x7d, 0xa7, 0x52, 0xaf, 0x92, 0xa5, 0xef, 0x05, 0x5f, 0x39,
    0x65, 0x66, 0x20, 0xd3, 0x41, 0x7f, 0xce, 0xf5, 0xff, 0xff  };
  return AI_HANDLE_PTR(s_sine_model_weights);
}
