/**
******************************************************************************
* @file    sine_model_data.c
* @author  AST Embedded Analytics Research Platform
* @date    Tue Apr 30 18:14:56 2024
* @brief   AI Tool Automatic Code Generator for Embedded NN computing
******************************************************************************
* @attention
*
* Copyright (c) 2024 STMicroelectronics.
* All rights reserved.
*
* This software component is licensed by ST under Ultimate Liberty license
* SLA0044, the "License"; You may not use this file except in compliance with
* the License. You may obtain a copy of the License at:
*                             www.st.com/SLA0044
*
******************************************************************************
*/

#include "sine_model_data.h"

ai_handle ai_sine_model_data_weights_get(void)
{
  AI_ALIGNED(32)
  static const ai_u8 s_sine_model_weights[4548] = {
    0xbf, 0xc2, 0xc1, 0x3e, 0xf2, 0x5c, 0x50, 0xbe, 0x66, 0x02,
    0x56, 0xbe, 0xb2, 0xa4, 0x8a, 0x3e, 0x1a, 0xfb, 0xe6, 0xbe,
    0x9a, 0x09, 0x02, 0x3f, 0x41, 0x2f, 0x87, 0xbe, 0x70, 0x7a,
    0xc3, 0xbe, 0x86, 0x86, 0xaf, 0x3d, 0x8a, 0xf5, 0xb1, 0x3d,
    0x0c, 0x44, 0x16, 0xbe, 0x5f, 0x1d, 0x0f, 0x3e, 0x9c, 0x9d,
    0x86, 0xbe, 0x0a, 0x98, 0xe5, 0xbe, 0x97, 0x81, 0x0a, 0xbf,
    0xec, 0xbd, 0xd1, 0x3e, 0x1b, 0xbc, 0x84, 0xbd, 0x00, 0x00,
    0x00, 0x00, 0x00, 0x00, 0x00, 0x00, 0x12, 0xf6, 0x1d, 0xbe,
    0x00, 0x00, 0x00, 0x00, 0xc8, 0xe0, 0xf7, 0x3d, 0x00, 0x00,
    0x00, 0x00, 0x00, 0x00, 0x00, 0x00, 0x04, 0xf2, 0xb5, 0x3d,
    0x91, 0xfe, 0x89, 0x3e, 0x00, 0x00, 0x00, 0x00, 0x27, 0x92,
    0x89, 0x3e, 0x00, 0x00, 0x00, 0x00, 0x00, 0x00, 0x00, 0x00,
    0x00, 0x00, 0x00, 0x00, 0x40, 0x83, 0x74, 0xbe, 0x94, 0xe4,
    0x05, 0x3d, 0x11, 0xb3, 0xc5, 0x3e, 0x80, 0x8f, 0xbb, 0x3c,
    0xa1, 0xec, 0xf4, 0xbe, 0xde, 0x5d, 0x25, 0x3e, 0x9f, 0x96,
    0xd6, 0xbe, 0x8e, 0x42, 0x6a, 0xbe, 0xc7, 0x03, 0xda, 0x3e,
    0x0e, 0x31, 0xc6, 0x3e, 0x0a, 0x2a, 0x8c, 0x3e, 0xb7, 0x8a,
    0xdd, 0x3e, 0xc3, 0xe2, 0xf2, 0x3e, 0x17, 0x2d, 0xc6, 0x3e,
    0x88, 0xaa, 0x39, 0xbe, 0x55, 0x06, 0x64, 0xbe, 0x7d, 0xfb,
    0x66, 0xbd, 0xb5, 0x89, 0x59, 0x3e, 0x4c, 0x70, 0x2f, 0xbe,
    0x02, 0x07, 0x64, 0x3e, 0x17, 0xc8, 0xa5, 0x3e, 0xd7, 0xe1,
    0xc7, 0xbe, 0xd2, 0x12, 0x3d, 0xbe, 0x50, 0x7d, 0xb6, 0xbc,
    0xc5, 0x25, 0xc0, 0x3e, 0xd7, 0x95, 0x96, 0x3e, 0x4c, 0x0b,
    0xb3, 0xbd, 0x14, 0xb2, 0xe1, 0x3d, 0xd4, 0x90, 0x2f, 0xbe,
    0xb0, 0x97, 0xcc, 0xbc, 0x33, 0x8c, 0xb7, 0x3e, 0x46, 0x42,
    0x68, 0x3e, 0x75, 0x4d, 0xe7, 0x3e, 0x56, 0x45, 0x5d, 0xbe,
    0x24, 0x00, 0x9b, 0xbd, 0xcd, 0x48, 0xca, 0x3e, 0xfa, 0x3e,
    0x31, 0xbe, 0x18, 0xf9, 0xde, 0xbd, 0x3e, 0x10, 0xbf, 0xbe,
    0x46, 0xfb, 0x31, 0xbe, 0x1f, 0xee, 0x55, 0xbe, 0x12, 0x0d,
    0xb2, 0x3e, 0x34, 0xc9, 0x23, 0x3e, 0x7b, 0x28, 0xc1, 0x3e,
    0x5a, 0x29, 0xa9, 0x3e, 0x6a, 0x7d, 0x33, 0x3e, 0xe0, 0x16,
    0x39, 0x3c, 0x36, 0x06, 0x1b, 0x3e, 0xa5, 0xe0, 0x86, 0xbe,
    0xca, 0xd7, 0x90, 0xbe, 0x85, 0x86, 0xb5, 0x3e, 0xf0, 0x7d,
    0x30, 0xbd, 0x2f, 0x0e, 0x81, 0x3e, 0x8e, 0xff, 0x1d, 0x3e,
    0x26, 0x0f, 0x13, 0x3e, 0x38, 0x99, 0x35, 0xbe, 0x51, 0x50,
    0xa2, 0x3e, 0xb5, 0xaa, 0x31, 0xbe, 0x5f, 0x4f, 0xbb, 0x3e,
    0x45, 0xa9, 0x6f, 0xbe, 0xdb, 0x4c, 0x7d, 0x3e, 0xb1, 0x64,
    0xdd, 0xbe, 0xba, 0xfa, 0x3c, 0x3e, 0x5b, 0x9a, 0x81, 0x3e,
    0xee, 0xe1, 0x00, 0x3e, 0x60, 0x61, 0xde, 0xbe, 0xa3, 0xb5,
    0xb6, 0x3e, 0xcc, 0xfd, 0xc2, 0x3d, 0x34, 0xc9, 0xa5, 0x3e,
    0x67, 0x77, 0xb0, 0xbe, 0x29, 0x3f, 0x5a, 0xbe, 0x64, 0x02,
    0xb3, 0xbd, 0x3d, 0x44, 0x3f, 0xbe, 0x3d, 0x80, 0xa6, 0x3e,
    0xf6, 0x59, 0xa0, 0xbc, 0xa9, 0xcb, 0xc9, 0x3e, 0x27, 0x02,
    0xdc, 0x3d, 0x00, 0x39, 0xcd, 0xba, 0x96, 0xbb, 0xd9, 0xbe,
    0x9a, 0xe7, 0x7e, 0x3e, 0xab, 0xb3, 0x23, 0x3e, 0x70, 0xb1,
    0x68, 0xbd, 0x09, 0x90, 0xc5, 0x3e, 0xcf, 0x36, 0x90, 0x3e,
    0x0a, 0xcc, 0xaf, 0xbe, 0x7f, 0xb0, 0xca, 0x3e, 0x98, 0x6b,
    0xae, 0xbe, 0xdd, 0xb0, 0xbb, 0x3e, 0x24, 0xf3, 0x8e, 0xbd,
    0xd5, 0x8e, 0xdd, 0xbe, 0x3e, 0xb3, 0xc5, 0xbe, 0xf0, 0x58,
    0xdc, 0xbd, 0x64, 0x04, 0x18, 0xbe, 0x09, 0x18, 0xcd, 0x3e,
    0x00, 0x94, 0xd6, 0xbc, 0xc0, 0x50, 0x83, 0xbe, 0x18, 0xb0,
    0xa3, 0xbd, 0xfc, 0x0a, 0xac, 0x3e, 0xd3, 0x9a, 0x83, 0x3e,
    0xe8, 0x3a, 0x6e, 0xbd, 0xb0, 0x74, 0x32, 0xbd, 0xb0, 0xc8,
    0xb3, 0xbc, 0xc1, 0x33, 0xde, 0x3d, 0xe6, 0x2c, 0x19, 0xbe,
    0x62, 0x9f, 0x1f, 0xbe, 0x67, 0x92, 0xaf, 0xbe, 0x7e, 0x0d,
    0x05, 0x3d, 0x58, 0x8a, 0xc7, 0xbe, 0xce, 0x47, 0xff, 0x3c,
    0x8b, 0xa8, 0x5b, 0xbe, 0xeb, 0x27, 0x8e, 0x3e, 0x30, 0xc0,
    0xc0, 0xbc, 0xfb, 0xc6, 0xa6, 0xbe, 0x76, 0x67, 0x02, 0x3e,
    0xa0, 0x9e, 0x68, 0xbd, 0x06, 0x85, 0x45, 0x3e, 0x4e, 0x89,
    0x76, 0xbe, 0x2e, 0xa9, 0x1f, 0xbe, 0x86, 0x23, 0xf7, 0xbd,
    0x90, 0x7e, 0x3a, 0xbd, 0x28, 0x16, 0x2b, 0xbd, 0x09, 0x53,
    0x0b, 0x3e, 0xb2, 0x75, 0x1f, 0xbe, 0x38, 0xd5, 0xdc, 0xbe,
    0xbc, 0x85, 0x27, 0xbd, 0xc4, 0xb1, 0xb4, 0xbd, 0x56, 0x7f,
    0x67, 0x3e, 0x78, 0x14, 0x51, 0x3d, 0x32, 0x7d, 0x87, 0xbe,
    0x49, 0xc8, 0x9d, 0x3e, 0xec, 0x84, 0xac, 0x3d, 0xfc, 0x54,
    0xdc, 0xbd, 0xab, 0x39, 0xff, 0x3d, 0x66, 0x09, 0x2b, 0x3e,
    0x4f, 0xd7, 0x3d, 0xbe, 0x16, 0x71, 0x69, 0x3e, 0x60, 0x98,
    0x75, 0x3d, 0xeb, 0x46, 0xd9, 0x3c, 0xbf, 0xf5, 0x8c, 0xbe,
    0xf1, 0x6a, 0xd5, 0x3e, 0x64, 0xa3, 0x62, 0x3e, 0x65, 0x9b,
    0xad, 0x3e, 0xac, 0x92, 0x6f, 0xbe, 0x9c, 0x66, 0x9e, 0xbd,
    0xed, 0xb3, 0xee, 0x3e, 0xde, 0x3b, 0xb5, 0x3e, 0x48, 0xdd,
    0xb5, 0xbe, 0x6f, 0x9e, 0x83, 0x3e, 0x73, 0xd4, 0x35, 0x3e,
    0x10, 0x0a, 0xb4, 0xbc, 0xdf, 0xaa, 0x7b, 0x3e, 0xa0, 0xe6,
    0xa4, 0xbc, 0x6c, 0x00, 0xa7, 0xbd, 0x90, 0x20, 0x5d, 0xbe,
    0xf4, 0x25, 0xac, 0x3d, 0xa0, 0x76, 0xa6, 0xbd, 0xbf, 0xab,
    0x03, 0x3e, 0xb2, 0x97, 0x7d, 0x3e, 0x81, 0xac, 0x43, 0xbe,
    0x80, 0x57, 0xed, 0x3c, 0x71, 0x4b, 0xb8, 0x3e, 0xc6, 0x1e,
    0x99, 0xbe, 0xe8, 0x51, 0xdf, 0xbd, 0x4c, 0x04, 0xc0, 0x3d,
    0xa2, 0xcd, 0x4f, 0x3e, 0xd6, 0xa4, 0x68, 0x3e, 0x5d, 0x9b,
    0xaf, 0xbe, 0x51, 0xfa, 0x85, 0x3e, 0xf0, 0x64, 0x88, 0xbe,
    0x40, 0x00, 0x07, 0xbd, 0xec, 0x38, 0xa9, 0xbd, 0x37, 0x0f,
    0xb9, 0x3e, 0xe8, 0xba, 0x1f, 0xbe, 0x75, 0xa1, 0x54, 0xbe,
    0x7c, 0x70, 0x94, 0x3d, 0xfa, 0x63, 0xc1, 0xbe, 0x6b, 0x62,
    0xca, 0x3e, 0xa6, 0x1f, 0x8e, 0x3e, 0x4a, 0x2e, 0x60, 0x3e,
    0x48, 0x78, 0x50, 0x3d, 0x0d, 0x1b, 0x77, 0x3e, 0x5e, 0x06,
    0x0e, 0x3e, 0x2d, 0xe7, 0x4c, 0xbb, 0xc8, 0x4d, 0xbc, 0xbd,
    0x96, 0x62, 0xdb, 0xbe, 0x3a, 0x78, 0xcb, 0x3e, 0x8e, 0x63,
    0x36, 0x3e, 0x0f, 0x5c, 0xa3, 0x3e, 0xb9, 0x49, 0xd5, 0x3e,
    0x6c, 0x1c, 0xa4, 0x3d, 0x3f, 0x56, 0xaa, 0x3e, 0xa5, 0x1e,
    0xb9, 0x3e, 0x8a, 0x34, 0x86, 0x3e, 0x60, 0xc8, 0xc5, 0x3e,
    0x14, 0x0e, 0xed, 0xbd, 0x70, 0xf1, 0xfd, 0xbd, 0xb9, 0x6f,
    0x8c, 0x3e, 0x0d, 0xdd, 0x90, 0x3e, 0x01, 0x50, 0x98, 0xbe,
    0x40, 0x2d, 0x8c, 0xbc, 0xbc, 0xbf, 0x87, 0xbe, 0xce, 0x22,
    0x9a, 0x3c, 0x52, 0x66, 0x80, 0x3b, 0x20, 0x64, 0x5e, 0x3c,
    0x75, 0x92, 0x49, 0x3e, 0xfd, 0x34, 0x47, 0xbe, 0x7e, 0x25,
    0x49, 0xbe, 0x6a, 0x54, 0x36, 0x3e, 0x87, 0x30, 0xe3, 0x3c,
    0x9c, 0xb2, 0x3e, 0xbe, 0x20, 0x49, 0x8f, 0xbc, 0xd2, 0x05,
    0x67, 0xbe, 0xf0, 0xd7, 0x1b, 0xbd, 0x37, 0xc3, 0xc6, 0xbe,
    0x70, 0x39, 0xcf, 0xbc, 0x5a, 0x49, 0x55, 0x3e, 0x0a, 0xaa,
    0x20, 0x3e, 0xdb, 0x01, 0xc5, 0xbe, 0x7e, 0x08, 0x6b, 0xbe,
    0x78, 0xd6, 0xa4, 0xbe, 0xe1, 0xe7, 0x91, 0xbe, 0x31, 0x63,
    0xac, 0x3e, 0x56, 0xcf, 0x0c, 0xbe, 0xf4, 0x53, 0x94, 0x3d,
    0x3f, 0xee, 0xb4, 0x3e, 0x90, 0x42, 0xa8, 0x3e, 0xb5, 0x64,
    0x9a, 0x3e, 0xcb, 0x20, 0x8f, 0x3e, 0xfa, 0x99, 0x97, 0x3e,
    0x1d, 0x6d, 0xba, 0x3e, 0xb9, 0xb1, 0x8e, 0x3e, 0x03, 0x11,
    0xbd, 0x3e, 0x20, 0x13, 0xd1, 0xbd, 0x73, 0x7d, 0x84, 0xbe,
    0xe8, 0x23, 0xa4, 0x3e, 0x39, 0xfc, 0xcb, 0x3e, 0x86, 0x69,
    0xac, 0x3d, 0x60, 0x3c, 0x1b, 0x3d, 0x86, 0x11, 0x7d, 0x3e,
    0xe6, 0x94, 0x57, 0x3e, 0xbc, 0xaa, 0xc3, 0x3e, 0x63, 0xb3,
    0x55, 0x3d, 0x50, 0x5d, 0x96, 0xbe, 0x62, 0x22, 0x55, 0x3e,
    0xa9, 0xe4, 0x15, 0xbd, 0x00, 0x3e, 0xf1, 0xbd, 0x25, 0xe6,
    0x5f, 0x3d, 0xf2, 0x8c, 0xa1, 0xbe, 0x6c, 0x8a, 0x89, 0xbd,
    0x09, 0x8b, 0x0b, 0xbc, 0x22, 0xf2, 0x66, 0x3b, 0xea, 0xd9,
    0x20, 0xbe, 0x80, 0x0f, 0xe5, 0xbe, 0xd2, 0x3e, 0x46, 0x3e,
    0xbe, 0x68, 0x40, 0x3e, 0x5a, 0x8d, 0x40, 0xbe, 0x72, 0xab,
    0x99, 0x3e, 0x17, 0xa5, 0xeb, 0x3d, 0x44, 0xd3, 0x7c, 0xbe,
    0x63, 0x36, 0xcf, 0x3d, 0x8c, 0x51, 0x68, 0x3e, 0x1b, 0xdb,
    0xf5, 0x3d, 0x00, 0x00, 0x00, 0x00, 0xf1, 0x55, 0x3b, 0x3e,
    0x6a, 0x64, 0x47, 0xb7, 0xd3, 0xbf, 0x84, 0xbe, 0x33, 0x79,
    0x8d, 0xbd, 0x00, 0x00, 0x00, 0x00, 0x9d, 0x62, 0x8a, 0x3e,
    0xcd, 0x04, 0x0a, 0xbe, 0x00, 0x00, 0x00, 0x00, 0xe3, 0x6f,
    0x3f, 0xbe, 0x7a, 0x4b, 0x45, 0xbe, 0xc5, 0xa2, 0x49, 0xbe,
    0x04, 0x18, 0x85, 0xbd, 0x02, 0xc8, 0xfd, 0xbd, 0x1c, 0x6f,
    0x31, 0x3e, 0xfd, 0x9e, 0x8d, 0xbe, 0xb6, 0xd6, 0x2d, 0x3e,
    0x8a, 0x81, 0x92, 0x3e, 0xec, 0x0f, 0x78, 0xbd, 0x7b, 0x2c,
    0x22, 0x3e, 0x07, 0x43, 0x3a, 0x3e, 0x5e, 0x89, 0x48, 0x3e,
    0x06, 0xef, 0x9b, 0x3e, 0x32, 0xa2, 0xb9, 0xbe, 0x78, 0x92,
    0x92, 0xbe, 0x2e, 0x53, 0xb2, 0x3e, 0xc7, 0x59, 0xcf, 0x3d,
    0x00, 0xda, 0xe0, 0xbd, 0x7e, 0x20, 0x4c, 0x3e, 0x8c, 0x98,
    0xa7, 0xbe, 0xcd, 0x3a, 0xbe, 0xbe, 0x82, 0xe7, 0x59, 0x3e,
    0xd0, 0xbf, 0xf9, 0x3c, 0x10, 0x87, 0x7c, 0xbd, 0x36, 0x54,
    0x6b, 0x3e, 0x00, 0x33, 0x47, 0x3b, 0x37, 0x05, 0x85, 0xbe,
    0x48, 0xe3, 0xa4, 0xbe, 0x58, 0xfb, 0x6c, 0xbd, 0x98, 0x56,
    0x16, 0xbd, 0xf0, 0x33, 0xf7, 0xbc, 0x98, 0xf5, 0x70, 0xbd,
    0x1d, 0x6f, 0xa6, 0x3e, 0x0d, 0x6e, 0x93, 0x3d, 0xc4, 0x53,
    0xc1, 0x3e, 0x3e, 0xc2, 0xc5, 0x3e, 0x10, 0x6a, 0x0f, 0xbe,
    0x94, 0x0b, 0x1a, 0x3e, 0x10, 0x70, 0xbd, 0xbd, 0xa9, 0x75,
    0xb7, 0xbe, 0x03, 0x05, 0xbe, 0x3e, 0x57, 0xc0, 0xdb, 0xbe,
    0x69, 0xc8, 0x41, 0xbe, 0xe0, 0xe7, 0x9b, 0xbe, 0xd8, 0x85,
    0x03, 0x3e, 0xf6, 0x1e, 0x83, 0xbe, 0x5e, 0x15, 0x68, 0x3e,
    0xa1, 0x1e, 0x19, 0x3e, 0x83, 0xf2, 0xd3, 0x3d, 0x1a, 0x69,
    0x03, 0xbd, 0x89, 0x1f, 0x68, 0xbe, 0x75, 0x58, 0xd3, 0x3e,
    0xd5, 0xd1, 0x29, 0x3e, 0x58, 0x7b, 0x66, 0xbe, 0xd0, 0x48,
    0xb1, 0xbd, 0x2c, 0x1b, 0x79, 0xbe, 0x65, 0x0f, 0x31, 0xbe,
    0x9c, 0xa3, 0xde, 0xbe, 0x91, 0xdd, 0xad, 0x3e, 0x0e, 0x22,
    0x63, 0x3e, 0xca, 0x0c, 0x8f, 0xbc, 0x5f, 0x88, 0x76, 0xbd,
    0xf6, 0x84, 0x0c, 0x3e, 0xbe, 0x8f, 0xaa, 0xbe, 0xc9, 0x88,
    0xa0, 0x3c, 0x37, 0x25, 0x00, 0x3f, 0xec, 0xc0, 0x6e, 0x3e,
    0xa8, 0x66, 0x00, 0x3f, 0xf6, 0xfc, 0xb9, 0xbe, 0x12, 0x5f,
    0xa4, 0x3e, 0x53, 0x83, 0x69, 0xbe, 0xe0, 0xb3, 0xbe, 0xbd,
    0x49, 0x46, 0x2d, 0x3e, 0xe5, 0x37, 0xac, 0xbe, 0x2e, 0x24,
    0x25, 0xbe, 0xe8, 0x3a, 0x50, 0xbd, 0xde, 0xcc, 0x96, 0x3e,
    0x0b, 0x88, 0x8e, 0x3e, 0x99, 0xc0, 0x79, 0xbe, 0xc0, 0xbd,
    0xc1, 0xbd, 0x7a, 0xbd, 0xc4, 0xbe, 0x59, 0x08, 0xcc, 0x3e,
    0x46, 0x85, 0x96, 0xbe, 0xe4, 0x70, 0xc3, 0x3e, 0x57, 0xab,
    0x5d, 0x3e, 0x9d, 0xe6, 0x31, 0x3e, 0xa0, 0x94, 0x92, 0xbe,
    0x69, 0x08, 0x9d, 0xbe, 0x29, 0xff, 0x85, 0xbe, 0xe5, 0x96,
    0xf3, 0xbe, 0x60, 0x12, 0xcf, 0xbe, 0x29, 0x65, 0x81, 0x3e,
    0x9b, 0x64, 0x94, 0xbd, 0x9e, 0xba, 0xd8, 0xbd, 0x8c, 0x62,
    0x8f, 0xbd, 0xa3, 0x44, 0xaa, 0x3e, 0xaf, 0xe4, 0x96, 0x3e,
    0x00, 0x23, 0x6b, 0x3e, 0xc9, 0x52, 0xc9, 0x3d, 0xd6, 0x64,
    0x2a, 0x3e, 0x45, 0xa4, 0xc4, 0xbe, 0x9c, 0x88, 0x58, 0x3d,
    0x55, 0xb1, 0xbb, 0x3e, 0xb8, 0xe3, 0xa8, 0x3e, 0x99, 0x86,
    0xcf, 0xbe, 0xa3, 0xbc, 0x4b, 0x3d, 0xdf, 0x85, 0x86, 0x3e,
    0x1a, 0x04, 0x6c, 0x3e, 0xe4, 0x51, 0xe5, 0xbd, 0x88, 0xae,
    0x09, 0x3e, 0x6a, 0x18, 0xbb, 0xbe, 0x56, 0xb6, 0xd4, 0x3e,
    0x12, 0x95, 0x22, 0x3e, 0xf5, 0xa2, 0x9e, 0x3d, 0x71, 0x74,
    0x11, 0xbe, 0x27, 0x6a, 0x42, 0xbe, 0x91, 0x10, 0xe6, 0xbd,
    0x66, 0xff, 0x04, 0xbf, 0xa8, 0x2c, 0x9e, 0xbe, 0x4e, 0x0f,
    0x95, 0x3e, 0xfb, 0xad, 0x12, 0xbd, 0x9a, 0x31, 0xa5, 0xbe,
    0x85, 0x4e, 0x59, 0xbe, 0x5c, 0x67, 0x15, 0xbe, 0x98, 0x4d,
    0x85, 0x3e, 0xdd, 0x00, 0x7e, 0x3e, 0x24, 0x2c, 0x29, 0xbe,
    0xd7, 0x48, 0x70, 0xbd, 0xc0, 0x9d, 0x93, 0x3e, 0x06, 0xa1,
    0x7e, 0xbe, 0x12, 0x76, 0x9f, 0xbe, 0xd5, 0x2f, 0xe8, 0xbe,
    0x48, 0x8d, 0x61, 0x3e, 0x1e, 0x0f, 0xf9, 0xbe, 0x52, 0x59,
    0xd9, 0xbe, 0x59, 0x9a, 0x3e, 0xbd, 0xab, 0xe4, 0xba, 0x3d,
    0x95, 0x7f, 0xa1, 0xbe, 0xa8, 0x77, 0xc4, 0x3d, 0xbb, 0xc2,
    0x9e, 0x3e, 0x76, 0x7e, 0xc0, 0x3e, 0x66, 0x1d, 0xea, 0xbe,
    0xcb, 0xd9, 0x9e, 0xbe, 0xeb, 0xf4, 0xac, 0xbe, 0xe9, 0x77,
    0x6d, 0xbe, 0x97, 0x2e, 0xd9, 0x3e, 0xf8, 0x36, 0x00, 0x3f,
    0x36, 0xda, 0x60, 0xbe, 0x1e, 0xbe, 0x7b, 0xbe, 0x5c, 0xaf,
    0x10, 0xbe, 0x95, 0xd3, 0x97, 0x3e, 0x6b, 0x84, 0xd8, 0x3e,
    0x2d, 0x46, 0x7d, 0x3e, 0x8a, 0x07, 0xf3, 0x3e, 0x48, 0xee,
    0xaa, 0x3e, 0x97, 0x7c, 0x4b, 0xbe, 0x46, 0x54, 0x17, 0x3e,
    0x90, 0xe6, 0xfb, 0x3e, 0xf9, 0xed, 0xa7, 0x3e, 0x12, 0x26,
    0xce, 0x3e, 0x40, 0x07, 0x8d, 0x3e, 0x7b, 0x5f, 0x97, 0xbd,
    0xd4, 0xa9, 0x34, 0x3c, 0x2d, 0xd6, 0x16, 0xbe, 0xe2, 0xe7,
    0x5a, 0x3e, 0x0a, 0x4a, 0x98, 0x3e, 0x01, 0x3a, 0x90, 0x3e,
    0x68, 0x12, 0x1c, 0xbb, 0xb4, 0x00, 0x0c, 0xbe, 0xfe, 0x50,
    0x06, 0xbe, 0xe2, 0x05, 0x14, 0xbe, 0x8a, 0x0b, 0x0e, 0xbe,
    0x31, 0xd1, 0xac, 0x3e, 0x37, 0x58, 0xfe, 0x3e, 0x90, 0x86,
    0x88, 0x3d, 0xf5, 0x41, 0xa0, 0x3d, 0x6f, 0xed, 0x22, 0x3e,
    0x68, 0x71, 0x1d, 0xbf, 0x34, 0x1e, 0xd7, 0xbe, 0xf0, 0xd7,
    0xf4, 0x3d, 0x5f, 0x6a, 0xc6, 0x3e, 0xf3, 0xb4, 0xad, 0xbb,
    0xe0, 0x63, 0x54, 0xbd, 0x24, 0x2d, 0x47, 0x3e, 0x52, 0xf8,
    0x30, 0xbe, 0x98, 0x8c, 0xc8, 0xbe, 0xad, 0x90, 0x84, 0xbd,
    0x5e, 0xe6, 0xa7, 0xbe, 0xcd, 0x4c, 0x9a, 0x3e, 0x50, 0xce,
    0xb2, 0x3c, 0xe8, 0xe9, 0xa8, 0xbe, 0xfd, 0xe5, 0x61, 0xbe,
    0xd0, 0xcc, 0xff, 0xbd, 0x68, 0x4d, 0x95, 0xbe, 0xa8, 0x7d,
    0xeb, 0xbd, 0xec, 0xe4, 0xd7, 0xbd, 0x46, 0xfe, 0x01, 0x3e,
    0x20, 0xad, 0x33, 0xbe, 0x80, 0x6b, 0x18, 0xbb, 0xce, 0x21,
    0x87, 0xbe, 0x3c, 0x3a, 0x90, 0x3d, 0xaa, 0x06, 0x11, 0x3e,
    0xe9, 0x66, 0xb9, 0x3e, 0x96, 0xb6, 0xb6, 0xbe, 0x00, 0xc0,
    0xc2, 0xbe, 0x19, 0x1b, 0x6d, 0xbe, 0x1f, 0xe4, 0x9d, 0x3e,
    0xb2, 0x80, 0x28, 0xbe, 0x04, 0xec, 0xdd, 0xbd, 0xf3, 0x62,
    0x43, 0x3c, 0x3d, 0x4c, 0x95, 0x3e, 0xe8, 0x66, 0x94, 0x3e,
    0x34, 0x03, 0x0f, 0x3d, 0x53, 0x94, 0x66, 0x3e, 0x8c, 0x06,
    0x85, 0xbd, 0xa7, 0x65, 0x21, 0xbd, 0xc4, 0x7e, 0x96, 0xbd,
    0x73, 0x67, 0xd0, 0x3e, 0x2a, 0xe9, 0xa0, 0xbc, 0x9f, 0xa0,
    0x99, 0x3e, 0xc5, 0x7b, 0xb8, 0x3d, 0xa6, 0x42, 0xc7, 0xbe,
    0x0c, 0xd5, 0xc5, 0x3d, 0x90, 0xdd, 0xb2, 0xbe, 0x70, 0x55,
    0xc4, 0x3e, 0x40, 0x69, 0x89, 0xbe, 0x7d, 0x0e, 0xd9, 0xbe,
    0x2d, 0xe5, 0xb6, 0x3e, 0x1e, 0x93, 0xab, 0xbe, 0x08, 0x8d,
    0xbb, 0xbe, 0xf4, 0x26, 0xeb, 0x3d, 0x34, 0x39, 0xa1, 0x3d,
    0xd3, 0x01, 0x81, 0xbe, 0xca, 0x1d, 0xb1, 0xbe, 0x10, 0x6a,
    0x14, 0xbd, 0x80, 0x0f, 0x1d, 0xbe, 0x98, 0x96, 0xfc, 0xbd,
    0x74, 0x8e, 0xcf, 0xbd, 0xc0, 0xfa, 0x9d, 0x3c, 0x62, 0xaf,
    0x07, 0xbe, 0x4a, 0x4e, 0xad, 0xbe, 0xd1, 0x98, 0x02, 0x3d,
    0x8e, 0xbf, 0xa0, 0xbe, 0xaa, 0xdc, 0x03, 0x3e, 0xff, 0xbe,
    0xaf, 0xbd, 0x7d, 0xef, 0xbf, 0x3e, 0x80, 0x98, 0x83, 0x3b,
    0x0d, 0xe4, 0x87, 0x3e, 0xec, 0x64, 0xdd, 0x3e, 0xcd, 0xfd,
    0xaa, 0x3c, 0x0f, 0xfa, 0xbc, 0xbe, 0x67, 0xae, 0xd5, 0x3e,
    0x6e, 0x3a, 0x47, 0x3e, 0x27, 0x58, 0x7e, 0xbe, 0x33, 0x5b,
    0x98, 0x3e, 0x59, 0xcb, 0x2d, 0xbe, 0x2c, 0x8e, 0x11, 0x3e,
    0xf1, 0xa3, 0x56, 0x3e, 0x00, 0x00, 0x00, 0x00, 0xb3, 0x05,
    0x7f, 0x3d, 0xff, 0x26, 0xee, 0x3d, 0xb5, 0x16, 0xd4, 0x3d,
    0x18, 0x27, 0x8f, 0x3c, 0x4f, 0xa4, 0xf5, 0x3c, 0xa6, 0xf3,
    0x1d, 0x3e, 0x29, 0xdf, 0x69, 0x3e, 0xb4, 0x14, 0x6b, 0xbe,
    0xfe, 0x0f, 0x29, 0xbe, 0x16, 0x13, 0xe4, 0x3e, 0x00, 0x00,
    0x00, 0x00, 0x20, 0x1c, 0x6f, 0x3d, 0x00, 0x00, 0x00, 0x00,
    0x38, 0xe6, 0xde, 0x3d, 0x59, 0x38, 0x94, 0xbe, 0x81, 0xe6,
    0x88, 0x3e, 0x88, 0x4b, 0x15, 0x3d, 0x46, 0xb7, 0xa7, 0x3e,
    0x97, 0x1f, 0x8b, 0x3e, 0x8d, 0x90, 0x00, 0xbe, 0x3d, 0xf4,
    0xaf, 0x3d, 0x44, 0x91, 0x27, 0x3e, 0x1c, 0xb1, 0x77, 0xbe,
    0x5e, 0xa6, 0x7a, 0xbe, 0xde, 0x43, 0x3a, 0x3e, 0xfc, 0xda,
    0xd8, 0x3e, 0x90, 0x44, 0x5c, 0xbe, 0xfc, 0xa4, 0x8c, 0xbe,
    0x87, 0xef, 0xd8, 0x3e, 0x8f, 0x80, 0xeb, 0x3d, 0xdd, 0x28,
    0xa4, 0x3e, 0x84, 0xaa, 0xbc, 0x3d, 0x8a, 0x99, 0x55, 0x3d,
    0xcd, 0xdb, 0x32, 0x3e, 0xa1, 0xf2, 0x17, 0x3d, 0x47, 0xa3,
    0xcb, 0xbb, 0xe2, 0xcd, 0x09, 0x3e, 0x75, 0x84, 0xb6, 0x3e,
    0x94, 0x2c, 0xb3, 0x3e, 0x1e, 0xff, 0x85, 0xbe, 0x2d, 0xd4,
    0xd7, 0xbe, 0xef, 0x58, 0xa1, 0x3e, 0x72, 0xa2, 0x0b, 0xbe,
    0xe6, 0x3c, 0x53, 0x3e, 0x3d, 0xba, 0xc8, 0xbe, 0x38, 0x62,
    0x3a, 0xbe, 0x7c, 0x5f, 0x43, 0xbe, 0x80, 0xea, 0xc9, 0xbb,
    0x25, 0xfd, 0xd6, 0x3e, 0x7b, 0x79, 0xd8, 0xbe, 0x66, 0x29,
    0x8f, 0xbe, 0x40, 0x30, 0xad, 0xbb, 0x9c, 0x5f, 0xb4, 0x3d,
    0x94, 0xb4, 0xce, 0x3d, 0xde, 0xd2, 0x11, 0xbe, 0x58, 0x88,
    0x02, 0xbe, 0x4b, 0xc4, 0xa1, 0xbe, 0x74, 0x14, 0x9f, 0x3d,
    0xd7, 0x38, 0x83, 0xbe, 0xa4, 0x59, 0xb3, 0x3d, 0x86, 0x9f,
    0x17, 0x3e, 0x93, 0xb7, 0xac, 0x3e, 0x86, 0xbb, 0x3e, 0xbb,
    0x2a, 0x0d, 0x73, 0xbe, 0xf1, 0xb8, 0x78, 0xbe, 0x36, 0xd2,
    0x60, 0xbe, 0x14, 0x45, 0xab, 0xbe, 0xe2, 0xa6, 0x15, 0xbe,
    0xc8, 0x8c, 0x56, 0x3e, 0x65, 0x54, 0x81, 0xbe, 0xe0, 0xef,
    0x12, 0x3e, 0x77, 0xf6, 0x7f, 0x3e, 0x8a, 0x20, 0xc1, 0x3e,
    0x85, 0xff, 0x63, 0xbf, 0xc6, 0x1d, 0x29, 0x3e, 0x12, 0x67,
    0x8c, 0x3e, 0xe9, 0x00, 0x9a, 0x3e, 0x10, 0x8d, 0x86, 0xbe,
    0x0d, 0x23, 0xdd, 0x3c, 0xb2, 0xff, 0x61, 0x3e, 0x24, 0xed,
    0x27, 0x3d, 0x96, 0x1d, 0x0e, 0x3f, 0xbd, 0xc0, 0x6f, 0xbe,
    0xc2, 0x54, 0x4d, 0x3b, 0x6b, 0x9f, 0x6d, 0x3e, 0xd4, 0xea,
    0x28, 0x3e, 0xbe, 0xea, 0x2c, 0x3f, 0x8f, 0x99, 0xac, 0xbb,
    0xcc, 0x56, 0xbd, 0x3e, 0x8f, 0x80, 0xb4, 0xbe, 0x68, 0xd0,
    0x5d, 0xbd, 0x15, 0x7c, 0x18, 0xbe, 0xce, 0xb3, 0x30, 0xbe,
    0x4c, 0xe2, 0xf9, 0xbe, 0x00, 0x32, 0x23, 0xbe, 0x6c, 0x75,
    0x89, 0xbd, 0x0a, 0x94, 0x6a, 0xbd, 0xe5, 0xfb, 0x85, 0xbe,
    0x45, 0x12, 0x91, 0x3e, 0x4b, 0x81, 0x3e, 0x3e, 0xdc, 0x22,
    0x41, 0x3d, 0x62, 0xae, 0x99, 0xbe, 0x38, 0xbf, 0xd5, 0xbe,
    0x21, 0x0b, 0x72, 0xbf, 0x03, 0x39, 0x3d, 0x3e, 0xcb, 0x88,
    0x70, 0x3e, 0x7b, 0x05, 0x99, 0xbe, 0xa0, 0x12, 0x17, 0xbd,
    0xe0, 0x6e, 0xbf, 0xbc, 0x1f, 0x49, 0xdd, 0x3e, 0x94, 0xa3,
    0x9a, 0xbe, 0xc1, 0xab, 0x98, 0x3e, 0x76, 0x1f, 0xa6, 0xbe,
    0x5c, 0x36, 0xe7, 0x3d, 0x4a, 0xdd, 0x3b, 0x3e, 0x40, 0x2e,
    0x13, 0xbe, 0x30, 0x51, 0x9b, 0xbe, 0x60, 0xd6, 0x29, 0xbe,
    0xde, 0x3e, 0x0f, 0x3e, 0x22, 0x50, 0x61, 0xbe, 0xcc, 0xe4,
    0x8d, 0xbe, 0x18, 0x59, 0xa3, 0xbe, 0x53, 0xc5, 0xd3, 0x3e,
    0xb0, 0xbc, 0x7e, 0xbe, 0x26, 0xf5, 0x53, 0x3e, 0x56, 0xaa,
    0x33, 0x3e, 0xce, 0x3d, 0x31, 0xbe, 0x60, 0x14, 0xa4, 0x3c,
    0x0b, 0x52, 0xbb, 0x3e, 0xf3, 0x0d, 0xe2, 0x3b, 0x2e, 0xbb,
    0x64, 0x3d, 0x0f, 0x40, 0xba, 0x3e, 0xc0, 0xad, 0x94, 0x3b,
    0x95, 0x90, 0x0b, 0x3c, 0xf1, 0xc8, 0x5a, 0x3e, 0x76, 0x9f,
    0x8f, 0xbe, 0x9e, 0x03, 0x49, 0xbe, 0xd5, 0x31, 0xf8, 0xbe,
    0x88, 0x2d, 0xa8, 0xbe, 0xbc, 0xff, 0xa1, 0xbe, 0x7c, 0x3c,
    0xb7, 0x3d, 0x05, 0xf5, 0x55, 0x3e, 0x06, 0xa6, 0x21, 0x3e,
    0xeb, 0x16, 0x88, 0x3e, 0xca, 0xdc, 0x86, 0xbc, 0xee, 0xe0,
    0xa6, 0x3d, 0x38, 0x54, 0xc9, 0xbe, 0x2b, 0xb8, 0xa9, 0xbe,
    0x5b, 0x78, 0xd9, 0xbd, 0x66, 0x43, 0x21, 0x3f, 0xb1, 0xef,
    0xfa, 0x3e, 0x7e, 0x28, 0x2c, 0xbe, 0x6d, 0xb8, 0x9d, 0xbd,
    0x1c, 0xed, 0x2d, 0x3f, 0x4f, 0x72, 0xbe, 0x3e, 0x42, 0x6d,
    0x1a, 0xbc, 0xa6, 0xb1, 0x4c, 0x3e, 0xff, 0x61, 0xe3, 0xbd,
    0x67, 0xba, 0x12, 0xbe, 0xe6, 0x55, 0x0d, 0x3e, 0xc8, 0xb5,
    0x0b, 0xbe, 0xa3, 0xea, 0xbf, 0xbd, 0xc1, 0xb2, 0x2a, 0xbd,
    0x3a, 0xa7, 0xdf, 0x3d, 0x60, 0x4b, 0xa4, 0x3e, 0x5a, 0x92,
    0xfa, 0xbd, 0xf1, 0x40, 0xdb, 0xbe, 0xab, 0xd7, 0x3b, 0x3e,
    0x52, 0xe8, 0x18, 0x3d, 0x26, 0x73, 0x15, 0x3e, 0x18, 0x9e,
    0x27, 0xbe, 0x85, 0xa2, 0x1d, 0xbd, 0x0e, 0x5d, 0x32, 0x3e,
    0x0d, 0x20, 0xbc, 0x3e, 0xea, 0x2d, 0xc4, 0x3c, 0xcd, 0x3e,
    0x45, 0xbe, 0xb5, 0x5d, 0xa3, 0x3e, 0x72, 0x81, 0x19, 0xbf,
    0x30, 0xaa, 0x25, 0xbe, 0xee, 0x3d, 0x82, 0x3e, 0x5a, 0x1b,
    0xbb, 0x3e, 0x63, 0xe5, 0x18, 0xbe, 0x9b, 0xae, 0xa6, 0xbe,
    0x0b, 0x2b, 0xe0, 0xbd, 0x56, 0x7a, 0x61, 0x3d, 0x90, 0x1f,
    0x32, 0x3f, 0xe9, 0x3b, 0x90, 0x3e, 0x07, 0x80, 0x5e, 0x3e,
    0x5f, 0x38, 0x7b, 0xbe, 0x67, 0x29, 0xe0, 0x3e, 0x36, 0xed,
    0xd8, 0x3e, 0x97, 0x02, 0xb4, 0x3e, 0x8b, 0x69, 0x9d, 0xbe,
    0xdd, 0x04, 0x1a, 0xbe, 0x7b, 0x72, 0xaf, 0xbe, 0xf7, 0x18,
    0x36, 0x3e, 0x30, 0xab, 0x5b, 0xbe, 0xbf, 0x9a, 0x17, 0x3f,
    0x95, 0xcf, 0x20, 0x3f, 0x68, 0x66, 0x97, 0xbe, 0xef, 0x8e,
    0x93, 0xbe, 0x88, 0x06, 0xe9, 0x3d, 0xc5, 0x8f, 0x3f, 0xbe,
    0xe2, 0xd1, 0xcf, 0xbe, 0x49, 0x08, 0xdd, 0xbe, 0x85, 0xcd,
    0x9d, 0x3e, 0xc4, 0x39, 0x36, 0x3e, 0x88, 0xd1, 0x2a, 0x3d,
    0xe0, 0xc5, 0xe1, 0xbe, 0x87, 0x2e, 0xa9, 0xbe, 0x28, 0x63,
    0x1a, 0xbf, 0xbc, 0x7f, 0xad, 0x3d, 0xba, 0x17, 0x14, 0x3e,
    0xe7, 0xb0, 0x8c, 0xbd, 0x61, 0x53, 0x80, 0x3d, 0x7f, 0xd2,
    0x57, 0xbe, 0xce, 0x0a, 0xa7, 0x3d, 0x05, 0xf8, 0x8c, 0x3f,
    0xaa, 0xb2, 0x72, 0x3e, 0xe2, 0x7f, 0x90, 0xbe, 0x08, 0xf9,
    0xfe, 0xbd, 0x60, 0x03, 0xc8, 0xbe, 0xb7, 0x05, 0x22, 0xbb,
    0xb9, 0xa5, 0xc5, 0xbe, 0x0e, 0x8a, 0x2d, 0xbe, 0x01, 0x30,
    0x58, 0x3e, 0xa7, 0xd1, 0x2b, 0x3d, 0xf6, 0x05, 0x9d, 0x3e,
    0x50, 0x89, 0x3d, 0x3e, 0xd3, 0xd2, 0x9d, 0xbe, 0x62, 0x01,
    0x25, 0x3e, 0x12, 0x20, 0xa4, 0xbe, 0x43, 0xe6, 0x9a, 0x3e,
    0xc4, 0x8d, 0x14, 0xbe, 0x84, 0x2b, 0x2d, 0xbe, 0x33, 0x5e,
    0x10, 0xbe, 0xba, 0x7f, 0x99, 0xbe, 0x41, 0x19, 0x03, 0x3f,
    0x48, 0xb1, 0xac, 0xbe, 0xfa, 0x0b, 0x38, 0x3e, 0xae, 0x09,
    0xb6, 0xbe, 0x2c, 0x8d, 0xf6, 0x3d, 0x68, 0xf5, 0xdb, 0xbd,
    0x5e, 0x0c, 0x0f, 0x3e, 0x47, 0x18, 0x4d, 0xbe, 0x40, 0xb8,
    0x74, 0xbe, 0x2b, 0xab, 0xd3, 0xbe, 0x44, 0xb6, 0xba, 0x3d,
    0x28, 0xd7, 0x8c, 0xbe, 0x02, 0xbc, 0x5e, 0x3e, 0xd2, 0xc9,
    0x55, 0x3e, 0xe2, 0xfe, 0x4a, 0xbe, 0x9a, 0xc3, 0x28, 0x3e,
    0xc0, 0x62, 0x77, 0x3c, 0xed, 0x8a, 0x15, 0xbe, 0x8a, 0x92,
    0x58, 0xbe, 0x20, 0x57, 0x1b, 0xbe, 0x8a, 0x43, 0x91, 0x3e,
    0x78, 0xdc, 0x9f, 0xbd, 0xf6, 0xbf, 0xfb, 0x3d, 0x12, 0x21,
    0xa8, 0xbe, 0xb8, 0xa6, 0x0e, 0xbe, 0xdf, 0x6e, 0x4b, 0x3e,
    0xa2, 0xd6, 0x5d, 0x3e, 0x13, 0xda, 0xbb, 0xbe, 0x81, 0x96,
    0x24, 0xbe, 0x5d, 0xe1, 0xa7, 0xbe, 0xe5, 0xfa, 0xce, 0x3e,
    0x35, 0x2f, 0xa8, 0x3e, 0x22, 0xbc, 0x6f, 0xbe, 0x60, 0x55,
    0x8e, 0x3c, 0x1a, 0x9d, 0x6b, 0x3e, 0x00, 0x00, 0x00, 0x00,
    0xe7, 0xe7, 0x25, 0xbe, 0x83, 0xdc, 0x0c, 0x3d, 0x55, 0xb0,
    0xfa, 0x3c, 0x00, 0x00, 0x00, 0x00, 0x0c, 0x15, 0x70, 0xbd,
    0xc2, 0xc4, 0x29, 0x3e, 0x9b, 0x46, 0x23, 0x3e, 0x83, 0xd3,
    0xc8, 0x3d, 0x79, 0x3b, 0x13, 0x3e, 0x97, 0xa1, 0x5a, 0x3e,
    0xfb, 0xa5, 0x06, 0x3d, 0x00, 0x00, 0x00, 0x00, 0xc9, 0x71,
    0xfa, 0xbb, 0x5f, 0x29, 0x60, 0xbd, 0xcd, 0xc8, 0x66, 0xbd,
    0x62, 0xff, 0x7c, 0x3e, 0xaf, 0xaf, 0xe0, 0xbd, 0x0c, 0x77,
    0x44, 0xbe, 0xd6, 0x87, 0x1c, 0x3c, 0x5f, 0x53, 0xc5, 0x3e,
    0xe0, 0x19, 0x92, 0xbe, 0x1f, 0x0e, 0x2f, 0x3f, 0x7b, 0xf3,
    0x00, 0x3f, 0x43, 0xc6, 0x46, 0x3e, 0x66, 0x3b, 0x1b, 0xbe,
    0x22, 0x6f, 0xa5, 0x3d, 0x07, 0xe9, 0xb6, 0xbe, 0xa8, 0x5f,
    0xd5, 0xbe, 0xc0, 0xd7, 0x34, 0xbd, 0x3b, 0x7b, 0x7d, 0x3e,
    0xcc, 0x44, 0x18, 0x3c, 0x8c, 0x11, 0xd9, 0xbe, 0x4e, 0xd2,
    0xe4, 0xbe, 0x50, 0x19, 0x6d, 0x3e, 0xfa, 0xa8, 0xe1, 0xbe,
    0x90, 0x52, 0x83, 0xbd, 0x32, 0xef, 0x1b, 0xbe, 0x8e, 0xc2,
    0x0b, 0xbf, 0xb0, 0xa5, 0xa8, 0x3d, 0xda, 0xaf, 0xd5, 0x3e,
    0xf9, 0x27, 0xf2, 0xbe, 0xa1, 0x1b, 0xa0, 0x3e, 0xd2, 0x94,
    0x5d, 0x3e, 0x08, 0xfc, 0xd1, 0xbd, 0x73, 0x2e, 0xad, 0x3e,
    0x5c, 0xc8, 0x8b, 0x3e, 0xd3, 0xfa, 0xce, 0xbe, 0x00, 0x24,
    0x57, 0xbb, 0x28, 0x95, 0xb2, 0xbd, 0x33, 0xf7, 0x64, 0x3c,
    0xcd, 0x9b, 0xbf, 0x3e, 0xb2, 0xb9, 0xca, 0xbe, 0x1d, 0x0a,
    0x0b, 0xbe, 0x9d, 0xf0, 0x24, 0xbe, 0x04, 0x60, 0xe7, 0x3d,
    0x94, 0x14, 0x81, 0x3b, 0xb1, 0x17, 0x79, 0xbe, 0x82, 0x2d,
    0x0a, 0xbe, 0x9e, 0x79, 0x95, 0xbc, 0x40, 0x36, 0x83, 0xbd,
    0xb9, 0xc7, 0xa0, 0x3e, 0x3a, 0x91, 0x07, 0xbe, 0x7f, 0x50,
    0x3b, 0x3e, 0xef, 0x7a, 0x9e, 0x3e, 0x0a, 0x84, 0x35, 0xbf,
    0x58, 0x81, 0xc6, 0x3d, 0x99, 0xc8, 0x9b, 0xbe, 0xe3, 0x32,
    0xdb, 0xbe, 0x30, 0xed, 0x52, 0x3d, 0xae, 0x02, 0x02, 0x3f,
    0x0b, 0xb9, 0x43, 0xbe, 0xc1, 0xc8, 0xb5, 0xbe, 0x0c, 0x0a,
    0x32, 0x3e, 0x47, 0x48, 0x01, 0x3e, 0xe0, 0xd0, 0xcb, 0xbe,
    0x15, 0x26, 0xae, 0x3e, 0x96, 0x58, 0xd6, 0xbe, 0x4a, 0x76,
    0x3d, 0x3e, 0x0d, 0xa1, 0x80, 0xbd, 0xd1, 0x2c, 0xb8, 0xbe,
    0x62, 0x40, 0x2f, 0x3d, 0xbd, 0xc3, 0x96, 0x3d, 0xbb, 0x37,
    0x24, 0x3e, 0x43, 0xcb, 0x94, 0x3e, 0x75, 0x04, 0xfd, 0xbb,
    0xfe, 0xdc, 0xbe, 0xbe, 0xd7, 0x60, 0xde, 0x3d, 0x03, 0xa7,
    0xc7, 0x3e, 0x19, 0xe1, 0x53, 0xbe, 0xca, 0x9b, 0x84, 0x3e,
    0xe4, 0xf5, 0x0f, 0xbf, 0x2c, 0x83, 0xce, 0x3d, 0x7e, 0x56,
    0x3e, 0x3e, 0x1c, 0x07, 0xe8, 0xbd, 0xec, 0x63, 0x2f, 0xbe,
    0x30, 0x01, 0xfd, 0xbc, 0x2a, 0x49, 0x11, 0xbe, 0xb2, 0x63,
    0x92, 0xbe, 0xac, 0xb0, 0xab, 0x3d, 0x24, 0x92, 0x4a, 0xbe,
    0x74, 0x5a, 0x83, 0xbe, 0xa3, 0xf0, 0x9c, 0xbe, 0x54, 0x57,
    0x94, 0x3d, 0xa7, 0x06, 0x78, 0xbe, 0xcb, 0x1d, 0xb2, 0xbe,
    0x8d, 0x01, 0x90, 0xbe, 0x17, 0x43, 0xb0, 0x3e, 0x13, 0xb2,
    0x96, 0x3e, 0x15, 0xbd, 0x90, 0x3e, 0x9b, 0xe3, 0x73, 0xbe,
    0x92, 0x9b, 0xa8, 0x3d, 0xf8, 0x9c, 0x4a, 0xbe, 0x20, 0xea,
    0xb5, 0x3e, 0x75, 0xd9, 0x10, 0x3f, 0x5c, 0x14, 0xa7, 0x3d,
    0x49, 0x69, 0xaa, 0x3e, 0xcf, 0x1a, 0x0b, 0x3e, 0xd7, 0x61,
    0x70, 0x3e, 0xe9, 0x14, 0x83, 0xbe, 0x83, 0xc9, 0x83, 0x3d,
    0xc0, 0x0f, 0xa8, 0x3e, 0xe9, 0x58, 0x03, 0x3e, 0x95, 0x57,
    0x9e, 0xbd, 0x60, 0x63, 0x5b, 0x3d, 0xc8, 0x5b, 0x9d, 0xbe,
    0xee, 0x89, 0x96, 0xbe, 0x1f, 0x04, 0x60, 0xbe, 0x62, 0x91,
    0x7e, 0xbe, 0x62, 0x92, 0x4d, 0x3e, 0x70, 0x2c, 0xe1, 0xbd,
    0x6b, 0x9b, 0xdb, 0xbe, 0xe8, 0x18, 0x88, 0x3d, 0x93, 0x57,
    0xc2, 0x3e, 0xbc, 0x64, 0xbf, 0xbd, 0xa8, 0xd5, 0x41, 0xbe,
    0x0c, 0xb1, 0x3a, 0xbe, 0xe2, 0x67, 0x14, 0x3e, 0x62, 0x18,
    0x51, 0x3e, 0x0d, 0x8e, 0x8b, 0xbe, 0xc2, 0xea, 0x7d, 0x3e,
    0x74, 0x7f, 0xbe, 0x3d, 0xfb, 0x7a, 0xeb, 0xbe, 0x9a, 0x2a,
    0xbc, 0xbe, 0x10, 0x52, 0xf6, 0xbd, 0x71, 0xe4, 0xdc, 0xbe,
    0x70, 0x86, 0xc7, 0xbe, 0xc0, 0xa5, 0x0b, 0xbd, 0x48, 0x1d,
    0x2d, 0xbe, 0x78, 0x62, 0x76, 0x3d, 0x6f, 0xff, 0x51, 0x3e,
    0x78, 0xd1, 0xc7, 0xbe, 0xfa, 0x67, 0x8f, 0xbe, 0x77, 0xee,
    0xb9, 0x3e, 0xfc, 0x12, 0xea, 0x3c, 0x9f, 0x7b, 0x43, 0xbe,
    0x0f, 0x91, 0x4a, 0xbe, 0x50, 0x38, 0x80, 0x3c, 0x6b, 0x4d,
    0x85, 0x3e, 0x3a, 0xc0, 0x3b, 0x3e, 0xa1, 0xf8, 0xa6, 0x3e,
    0x4f, 0x2e, 0x1f, 0xbd, 0xdb, 0xc5, 0xbb, 0xbd, 0x94, 0x2a,
    0x5a, 0x3e, 0x55, 0xd4, 0x8b, 0x3e, 0x2f, 0xd8, 0xbe, 0xbe,
    0x2c, 0x1f, 0x81, 0xbe, 0x50, 0x09, 0xd2, 0xbd, 0xfd, 0xa2,
    0x80, 0x3d, 0x5b, 0x92, 0x18, 0xbf, 0x4e, 0x35, 0x12, 0x3f,
    0xec, 0x00, 0x58, 0xbe, 0x3c, 0x82, 0x88, 0xbd, 0x92, 0x7e,
    0xc9, 0xbe, 0xbd, 0x84, 0x93, 0x3e, 0x57, 0x62, 0xbc, 0xbe,
    0x0c, 0x67, 0x8a, 0xbe, 0x33, 0x74, 0x9c, 0x3e, 0x4d, 0xc8,
    0xfe, 0xbd, 0x95, 0xe6, 0xa9, 0x3e, 0x3c, 0x8d, 0xc8, 0xbe,
    0x30, 0xdb, 0x71, 0xbe, 0xa6, 0x1c, 0xb8, 0xbe, 0x06, 0x98,
    0xd3, 0xbd, 0xc5, 0x3d, 0xc3, 0xbe, 0xfc, 0x4d, 0xbb, 0xbd,
    0x29, 0xb2, 0x84, 0xbe, 0xfc, 0x28, 0xa5, 0xbe, 0xe0, 0x0b,
    0x31, 0x3c, 0x62, 0x43, 0x93, 0xbe, 0x26, 0x4a, 0x5a, 0xbe,
    0x98, 0x68, 0xc4, 0x3d, 0xc2, 0x92, 0xa2, 0xbe, 0x7c, 0xc7,
    0xa3, 0xbe, 0xb9, 0x40, 0x7f, 0xbe, 0xcc, 0x4d, 0x99, 0x3e,
    0xe0, 0xca, 0x32, 0xbe, 0xf9, 0x23, 0x92, 0x3e, 0xd1, 0x4a,
    0x4b, 0xbf, 0xd4, 0x0a, 0x56, 0x3e, 0x8e, 0xc7, 0x51, 0x3e,
    0x4a, 0xef, 0x2d, 0xbf, 0xe0, 0x48, 0x1d, 0x3f, 0xc8, 0xc9,
    0xc6, 0x3d, 0xde, 0x53, 0x44, 0x3e, 0x20, 0xc6, 0x23, 0xbd,
    0x83, 0xe8, 0xb1, 0x3e, 0x58, 0x21, 0xfe, 0x3e, 0x62, 0x71,
    0x3b, 0xbe, 0x69, 0xe2, 0xc4, 0x3d, 0xec, 0x81, 0x69, 0xbd,
    0x3d, 0x9b, 0x50, 0x3e, 0x15, 0xed, 0xc6, 0x3e, 0xfb, 0xb7,
    0x01, 0xbe, 0x8e, 0x3c, 0x13, 0xbf, 0xe1, 0x94, 0xe4, 0x3d,
    0xde, 0x5d, 0x82, 0x3e, 0x97, 0x51, 0xad, 0xbe, 0xee, 0xd2,
    0x93, 0xbd, 0x07, 0x8c, 0xc3, 0x3c, 0x78, 0x20, 0xd6, 0xbe,
    0xd5, 0xab, 0x52, 0x3e, 0x61, 0xab, 0xa6, 0xbe, 0x70, 0x7b,
    0xb3, 0xbe, 0x26, 0xf0, 0xab, 0xbe, 0xca, 0x3a, 0x5f, 0x3e,
    0x34, 0xb5, 0x38, 0xbe, 0xa7, 0x1b, 0xc6, 0xbe, 0x11, 0x80,
    0x8a, 0x3e, 0x8a, 0x91, 0x69, 0x3e, 0xe0, 0xb5, 0x63, 0xbc,
    0x38, 0x56, 0xbf, 0xbe, 0x60, 0x11, 0x59, 0x3d, 0xe1, 0xef,
    0xa9, 0x3e, 0x6e, 0x29, 0xb7, 0xbe, 0xd0, 0x92, 0x83, 0xbd,
    0x3e, 0xc0, 0xb2, 0xbe, 0x7a, 0xaa, 0x15, 0x3e, 0x20, 0x7e,
    0x3b, 0x3c, 0x24, 0x54, 0x9d, 0xbe, 0x94, 0xf4, 0xb2, 0xbd,
    0x40, 0x44, 0x46, 0xbd, 0x32, 0xb3, 0x0b, 0x3d, 0x95, 0x56,
    0xcc, 0x3e, 0xa9, 0xad, 0xbc, 0x3e, 0x84, 0xa2, 0xb4, 0xbd,
    0x68, 0xde, 0x24, 0x3d, 0xe7, 0x2a, 0x97, 0x3d, 0x05, 0x98,
    0xa4, 0xbe, 0x00, 0xe8, 0x89, 0xbe, 0xb7, 0xea, 0xa4, 0xbd,
    0x9e, 0x85, 0x15, 0x3e, 0x93, 0x52, 0xac, 0x3e, 0xae, 0x34,
    0x65, 0x3e, 0x79, 0x90, 0xeb, 0x3e, 0xf0, 0x33, 0xf2, 0xbd,
    0xa3, 0x3d, 0xa6, 0x3e, 0x14, 0xfd, 0x56, 0xbe, 0xa4, 0x56,
    0xb7, 0xbe, 0x02, 0xd4, 0xd9, 0x3e, 0x30, 0x08, 0x9e, 0xbc,
    0x8c, 0xfd, 0x83, 0xbe, 0x36, 0xc4, 0x80, 0x3e, 0x5b, 0xfc,
    0x48, 0xbe, 0x51, 0x4c, 0x82, 0x3e, 0xe4, 0x39, 0x5c, 0xbd,
    0x07, 0x01, 0x98, 0x3e, 0x08, 0x74, 0x33, 0xbd, 0x8c, 0x6c,
    0x44, 0xbe, 0x18, 0xd0, 0xf4, 0xbd, 0xad, 0xaa, 0x12, 0xbc,
    0xd0, 0x4e, 0x2a, 0x3e, 0x55, 0x42, 0xa6, 0xbc, 0x9c, 0x1b,
    0xd7, 0x3d, 0xde, 0xc7, 0x2e, 0x3e, 0x00, 0x00, 0x00, 0x00,
    0x2b, 0x71, 0xf7, 0xbb, 0x00, 0x00, 0x00, 0x00, 0x1e, 0x95,
    0x16, 0xbd, 0x67, 0x8b, 0xd1, 0x3d, 0xfe, 0x7b, 0xad, 0xbd,
    0xdb, 0x62, 0x64, 0x3e, 0x30, 0x18, 0x07, 0x3e, 0x00, 0x00,
    0x00, 0x00, 0xfa, 0x82, 0x08, 0xbd, 0xe7, 0x17, 0x07, 0xbe,
    0x9d, 0xea, 0xf5, 0x3c, 0x9e, 0xff, 0x4a, 0xbf, 0x82, 0x02,
    0x3e, 0x3e, 0x4d, 0x25, 0x2b, 0x3f, 0x65, 0x58, 0x96, 0xbe,
    0x38, 0x5c, 0x17, 0x3f, 0x3c, 0xef, 0xba, 0x3e, 0x00, 0xcd,
    0x4f, 0x3c, 0xfe, 0xea, 0x01, 0xbf, 0x4e, 0x14, 0x39, 0xbf,
    0x92, 0x3e, 0x95, 0xbe, 0xf8, 0x60, 0x7c, 0xbf, 0xe7, 0xd4,
    0x1c, 0xbe, 0x58, 0xcf, 0x75, 0x3e, 0x31, 0xab, 0x84,
    0xbe, 0xcc, 0xb4, 0x65, 0xbd, 0xd5, 0x51, 0x94, 0xbc  };
  return AI_HANDLE_PTR(s_sine_model_weights);
}
